<unk>	0
<s>	0
</s>	0
es	-0
▁d	-1
▁l	-2
nt	-3
▁p	-4
qu	-5
re	-6
▁c	-7
on	-8
▁s	-9
▁e	-10
▁a	-11
▁de	-12
ti	-13
is	-14
ent	-15
ur	-16
que	-17
it	-18
an	-19
▁m	-20
le	-21
▁la	-22
er	-23
in	-24
ar	-25
▁et	-26
▁des	-27
un	-28
ie	-29
or	-30
ou	-31
om	-32
ant	-33
tion	-34
▁les	-35
▁g	-36
te	-37
▁le	-38
▁f	-39
▁un	-40
▁r	-41
us	-42
ment	-43
el	-44
il	-45
▁à	-46
▁en	-47
és	-48
▁L	-49
ra	-50
ont	-51
rec	-52
▁t	-53
ce	-54
▁qu	-55
me	-56
▁n	-57
▁é	-58
▁par	-59
▁po	-60
est	-61
ans	-62
en	-63
▁v	-64
as	-65
ation	-66
ques	-67
▁pr	-68
▁au	-69
▁(	-70
▁grec	-71
al	-72
tu	-73
ique	-74
de	-75
res	-76
▁qui	-77
iv	-78
▁pl	-79
ch	-80
▁du	-81
po	-82
au	-83
ri	-84
▁dans	-85
▁con	-86
▁une	-87
▁dé	-88
▁av	-89
én	-90
▁se	-91
ul	-92
▁est	-93
▁com	-94
ci	-95
les	-96
mp	-97
ien	-98
op	-99
▁re	-100
▁h	-101
ée	-102
ire	-103
▁b	-104
ne	-105
ais	-106
li	-107
urs	-108
ité	-109
si	-110
▁sont	-111
ta	-112
▁G	-113
▁A	-114
▁plus	-115
ouv	-116
▁sur	-117
==	-118
té	-119
▁C	-120
rè	-121
ol	-122
ec	-123
eu	-124
ale	-125
▁»	-126
th	-127
ag	-128
tique	-129
os	-130
iè	-131
▁i	-132
ers	-133
▁«	-134
tes	-135
ture	-136
▁P	-137
▁pour	-138
▁ré	-139
▁Les	-140
ac	-141
oi	-142
se	-143
▁que	-144
▁ce	-145
ités	-146
ins	-147
tre	-148
ine	-149
▁J	-150
ion	-151
our	-152
oy	-153
oc	-154
poque	-155
and	-156
ées	-157
nes	-158
▁I	-159
ist	-160
▁grecque	-161
ig	-162
▁La	-163
▁ex	-164
▁cul	-165
▁mon	-166
iques	-167
.-	-168
od	-169
▁D	-170
mes	-171
époque	-172
▁ch	-173
),	-174
uis	-175
▁ar	-176
▁ou	-177
ort	-178
▁peu	-179
ff	-180
▁ant	-181
ell	-182
▁comme	-183
di	-184
og	-185
ré	-186
ièc	-187
isation	-188
▁mais	-189
ue	-190
▁==	-191
ux	-192
ement	-193
elle	-194
▁fa	-195
▁pas	-196
pp	-197
▁su	-198
éra	-199
▁M	-200
▁leur	-201
▁sièc	-202
▁S	-203
▁parti	-204
ellén	-205
oma	-206
tions	-207
▁avec	-208
▁monde	-209
rèce	-210
▁Grèce	-211
at	-212
▁j	-213
ance	-214
▁for	-215
).	-216
lle	-217
rit	-218
éri	-219
▁cités	-220
▁===	-221
▁aux	-222
▁Le	-223
▁:	-224
ang	-225
tte	-226
▁te	-227
▁ent	-228
urant	-229
▁siècle	-230
▁culture	-231
ab	-232
ai	-233
▁di	-234
▁or	-235
ellénis	-236
out	-237
▁gr	-238
▁in	-239
tiques	-240
aux	-241
▁puis	-242
vel	-243
▁imp	-244
co	-245
opp	-246
▁aus	-247
▁ont	-248
dent	-249
velopp	-250
▁aussi	-251
tr	-252
aire	-253
▁développ	-254
▁il	-255
▁mê	-256
▁ph	-257
▁son	-258
▁cons	-259
▁E	-260
ces	-261
ois	-262
▁dis	-263
▁hellénis	-264
rès	-265
éd	-266
▁o	-267
ens	-268
ors	-269
ir	-270
oit	-271
▁Grec	-272
las	-273
▁nom	-274
▁tra	-275
▁aut	-276
▁civ	-277
ts	-278
par	-279
une	-280
▁durant	-281
av	-282
cl	-283
ph	-284
ys	-285
ite	-286
▁même	-287
▁poli	-288
ode	-289
▁clas	-290
nd	-291
ér	-292
ous	-293
▁no	-294
▁tr	-295
oire	-296
être	-297
▁cont	-298
ènes	-299
▁mar	-300
▁antique	-301
ure	-302
▁ne	-303
ier	-304
ient	-305
uc	-306
age	-307
onn	-308
ris	-309
▁pre	-310
▁comp	-311
ex	-312
ic	-313
oir	-314
ond	-315
iens	-316
mment	-317
▁roma	-318
▁Grecs	-319
ut	-320
cip	-321
ère	-322
▁»,	-323
▁arch	-324
aï	-325
aut	-326
▁ac	-327
mb	-328
éc	-329
sent	-330
▁cité	-331
▁H	-332
int	-333
00	-334
ge	-335
hé	-336
bre	-337
che	-338
erv	-339
▁mod	-340
ations	-341
ouvent	-342
im	-343
▁entre	-344
▁hellénistique	-345
▁ma	-346
▁class	-347
Ie	-348
oph	-349
▁Il	-350
▁ég	-351
titu	-352
▁ter	-353
▁conn	-354
▁peut	-355
ilisation	-356
ad	-357
▁an	-358
▁mo	-359
ales	-360
▁péri	-361
▁B	-362
oci	-363
tant	-364
▁col	-365
▁div	-366
et	-367
▁V	-368
onc	-369
thènes	-370
▁grecques	-371
▁classique	-372
▁civilisation	-373
yp	-374
ille	-375
ines	-376
▁gén	-377
▁pro	-378
aires	-379
lement	-380
tamment	-381
▁nombre	-382
if	-383
ém	-384
▁T	-385
uer	-386
▁al	-387
▁politique	-388
lex	-389
oup	-390
tiv	-391
itoy	-392
▁cel	-393
▁être	-394
▁cette	-395
▁période	-396
ace	-397
cul	-398
▁sp	-399
▁éc	-400
lles	-401
▁comm	-402
▁généra	-403
▁import	-404
▁souvent	-405
▁es	-406
▁prés	-407
▁citoy	-408
ants	-409
ieu	-410
▁él	-411
▁dev	-412
▁bien	-413
▁	-414
e	-415
s	-416
i	-417
t	-418
n	-419
a	-420
r	-421
u	-422
l	-423
o	-424
d	-425
c	-426
p	-427
é	-428
m	-429
,	-430
q	-431
v	-432
g	-433
'	-434
.	-435
h	-436
f	-437
b	-438
è	-439
x	-440
y	-441
à	-442
L	-443
(	-444
)	-445
A	-446
C	-447
-	-448
=	-449
I	-450
G	-451
ê	-452
0	-453
«	-454
»	-455
P	-456
j	-457
J	-458
D	-459
S	-460
E	-461
M	-462
1	-463
2	-464
:	-465
3	-466
H	-467
É	-468
V	-469
z	-470
â	-471
ï	-472
O	-473
ô	-474
î	-475
4	-476
B	-477
5	-478
T	-479
8	-480
7	-481
R	-482
;	-483
’	-484
œ	-485
N	-486
6	-487
ù	-488
X	-489
k	-490
ç	-491
9	-492
U	-493
F	-494
À	-495
/	-496
